111111111111010000
111001111001111100
111111111101110000
111111111110100100
111111111111001100
000011011011001000
000011101001011100
000011100001110000
000011100111101100
111111111110011100
111111011011101000
111111111111010100
111111111101000000
111011000100001100
111111111111011000
111110100001011000
000010000101001000
000001011100111000
000000111101111100
111111111110110100
000011011110111000
000000001000111000
111111111111011100
111111011110110000
000001110000100000
111111110011110100
111111111110011100
111111111111010000
000110011111001100
111111111010011100
111111111111011100
111111111110111000
